{"0": "\u0000", "1": "\u0001", "2": "\u0002", "3": "\u0003", "4": "\u0004", "5": "\u0005", "6": "\u0006", "7": "\u0007", "8": "\b", "9": "\t", "10": "\n", "11": "\u000b", "12": "\f", "13": "\r", "14": "\u000e", "15": "\u000f", "16": "\u0010", "17": "\u0011", "18": "\u0012", "19": "\u0013", "20": "\u0014", "21": "\u0015", "22": "\u0016", "23": "\u0017", "24": "\u0018", "25": "\u0019", "26": "\u001a", "27": "\u001b", "28": "\u001c", "29": "\u001d", "30": "\u001e", "31": "\u001f", "32": " ", "33": "!", "34": "\"", "35": "#", "36": "$", "37": "%", "38": "&", "39": "'", "40": "(", "41": ")", "42": "*", "43": "+", "44": ",", "45": "-", "46": ".", "47": "/", "48": "0", "49": "1", "50": "2", "51": "3", "52": "4", "53": "5", "54": "6", "55": "7", "56": "8", "57": "9", "58": ":", "59": ";", "60": "<", "61": "=", "62": ">", "63": "?", "64": "@", "65": "A", "66": "B", "67": "C", "68": "D", "69": "E", "70": "F", "71": "G", "72": "H", "73": "I", "74": "J", "75": "K", "76": "L", "77": "M", "78": "N", "79": "O", "80": "P", "81": "Q", "82": "R", "83": "S", "84": "T", "85": "U", "86": "V", "87": "W", "88": "X", "89": "Y", "90": "Z", "91": "[", "92": "\\", "93": "]", "94": "^", "95": "_", "96": "`", "97": "a", "98": "b", "99": "c", "100": "d", "101": "e", "102": "f", "103": "g", "104": "h", "105": "i", "106": "j", "107": "k", "108": "l", "109": "m", "110": "n", "111": "o", "112": "p", "113": "q", "114": "r", "115": "s", "116": "t", "117": "u", "118": "v", "119": "w", "120": "x", "121": "y", "122": "z", "123": "{", "124": "|", "125": "}", "126": "~", "127": "\u007f", "128": "\ufffd", "129": "\ufffd", "130": "\ufffd", "131": "\ufffd", "132": "\ufffd", "133": "\ufffd", "134": "\ufffd", "135": "\ufffd", "136": "\ufffd", "137": "\ufffd", "138": "\ufffd", "139": "\ufffd", "140": "\ufffd", "141": "\ufffd", "142": "\ufffd", "143": "\ufffd", "144": "\ufffd", "145": "\ufffd", "146": "\ufffd", "147": "\ufffd", "148": "\ufffd", "149": "\ufffd", "150": "\ufffd", "151": "\ufffd", "152": "\ufffd", "153": "\ufffd", "154": "\ufffd", "155": "\ufffd", "156": "\ufffd", "157": "\ufffd", "158": "\ufffd", "159": "\ufffd", "160": "\ufffd", "161": "\ufffd", "162": "\ufffd", "163": "\ufffd", "164": "\ufffd", "165": "\ufffd", "166": "\ufffd", "167": "\ufffd", "168": "\ufffd", "169": "\ufffd", "170": "\ufffd", "171": "\ufffd", "172": "\ufffd", "173": "\ufffd", "174": "\ufffd", "175": "\ufffd", "176": "\ufffd", "177": "\ufffd", "178": "\ufffd", "179": "\ufffd", "180": "\ufffd", "181": "\ufffd", "182": "\ufffd", "183": "\ufffd", "184": "\ufffd", "185": "\ufffd", "186": "\ufffd", "187": "\ufffd", "188": "\ufffd", "189": "\ufffd", "190": "\ufffd", "191": "\ufffd", "192": "\ufffd", "193": "\ufffd", "194": "\ufffd", "195": "\ufffd", "196": "\ufffd", "197": "\ufffd", "198": "\ufffd", "199": "\ufffd", "200": "\ufffd", "201": "\ufffd", "202": "\ufffd", "203": "\ufffd", "204": "\ufffd", "205": "\ufffd", "206": "\ufffd", "207": "\ufffd", "208": "\ufffd", "209": "\ufffd", "210": "\ufffd", "211": "\ufffd", "212": "\ufffd", "213": "\ufffd", "214": "\ufffd", "215": "\ufffd", "216": "\ufffd", "217": "\ufffd", "218": "\ufffd", "219": "\ufffd", "220": "\ufffd", "221": "\ufffd", "222": "\ufffd", "223": "\ufffd", "224": "\ufffd", "225": "\ufffd", "226": "\ufffd", "227": "\ufffd", "228": "\ufffd", "229": "\ufffd", "230": "\ufffd", "231": "\ufffd", "232": "\ufffd", "233": "\ufffd", "234": "\ufffd", "235": "\ufffd", "236": "\ufffd", "237": "\ufffd", "238": "\ufffd", "239": "\ufffd", "240": "\ufffd", "241": "\ufffd", "242": "\ufffd", "243": "\ufffd", "244": "\ufffd", "245": "\ufffd", "246": "\ufffd", "247": "\ufffd", "248": "\ufffd", "249": "\ufffd", "250": "\ufffd", "251": "\ufffd", "252": "\ufffd", "253": "\ufffd", "254": "\ufffd", "255": "\ufffd", "256": "he", "257": " t", "258": " a", "259": " s", "260": " w", "261": "nd", "262": " the", "263": "ed", "264": " b", "265": " to", "266": " and", "267": " h", "268": " f", "269": "in", "270": " wa", "271": " T", "272": "it", "273": "re", "274": "ou", "275": " l", "276": " d", "277": " c", "278": " p", "279": "ay", "280": " was", "281": "er", "282": " m", "283": "om", "284": " he", "285": " The", "286": "is", "287": " n", "288": "on", "289": "ar", "290": "im", "291": " sa", "292": "ll", "293": "id", "294": " ha", "295": " g", "296": " S", "297": "at", "298": "ing", "299": "ot", "300": "en", "301": "an", "302": "le", "303": "or", "304": "ir", "305": " H", "306": "am", "307": "et", "308": " it", "309": " th", "310": "ig", "311": " They", "312": "il", "313": " in", "314": " He", "315": " pl", "316": " \"", "317": "ow", "318": "ver", "319": "ri", "320": " u", "321": "ut", "322": " day", "323": " said", "324": "ith", "325": "pp", "326": " play", "327": " be", "328": "On", "329": " with", "330": " o", "331": " y", "332": " her", "333": " r", "334": "oo", "335": "ked", "336": "ce", "337": " his", "338": " She", "339": " I", "340": "ld", "341": " st", "342": " Tim", "343": "ke", "344": " e", "345": "nt", "346": "ck", "347": " big", "348": "very", "349": " you", "350": "ve", "351": "st", "352": " happ", "353": " on", "354": "end", "355": "un", "356": "all", "357": "ily", "358": "riend", "359": " friend", "360": " L", "361": " up", "362": " they", "363": " want", "364": " we", "365": " had", "366": " not", "367": "her", "368": " li", "369": "itt", "370": " do", "371": " of", "372": " B", "373": "ad", "374": "es", "375": " happy", "376": " M", "377": "ent", "378": " very", "379": " that", "380": "One", "381": " saw", "382": " mom", "383": "ould", "384": "'s", "385": "se", "386": " for", "387": "ittle", "388": " little", "389": " so", "390": " she", "391": " sh", "392": "ime", "393": " k", "394": " time", "395": " ne", "396": " nam", "397": "ch", "398": " there", "399": ".\"", "400": "ound", "401": " bo", "402": " named", "403": " Lily", "404": "ird", "405": " sm", "406": " wanted", "407": " bird", "408": " Tom", "409": "ved", "410": " were", "411": " but", "412": "The", "413": " friends", "414": "!\"", "415": "out", "416": "ht", "417": "el", "418": "ake", "419": "al", "420": " an", "421": " too", "422": "ide", "423": " hel", "424": "Once", "425": " wh", "426": " help", "427": "ug", "428": "ome", "429": " went", "430": " all", "431": " It", "432": " A", "433": " loo", "434": " is", "435": " upon", "436": " lo", "437": "ue", "438": "ter", "439": "ry", "440": "ore", "441": "ind", "442": "get", "443": " fun", "444": " toy", "445": "ill", "446": "ack", "447": "gether", "448": " at", "449": " j", "450": " as", "451": " did", "452": "ame", "453": " re", "454": " together", "455": "ur", "456": " cat", "457": "ra", "458": " dog", "459": " se", "460": "ly", "461": " tre", "462": "ood", "463": " gir", "464": " can", "465": "ic", "466": " ball", "467": "my", "468": " girl", "469": " could", "470": "ard", "471": "ted", "472": " him", "473": " their", "474": "ec", "475": "ark", "476": " ro", "477": "way", "478": " kn", "479": " played", "480": "?\"", "481": "hed", "482": " fr", "483": "ain", "484": "hen", "485": " le", "486": " out", "487": "um", "488": "'t", "489": "ax", "490": " go", "491": " them", "492": " are", "493": " boy", "494": " sad", "495": "ul", "496": "oug", "497": " have", "498": " tree", "499": " cl", "500": " loved", "501": "other", "502": " back", "503": " looked", "504": " sp", "505": " found", "506": "own", "507": "one", "508": " Max", "509": " me", "510": " sc", "511": " man", "512": "are", "513": " star", "514": " Sue", "515": "hing", "516": "side", "517": " park", "518": "ong", "519": "op", "520": "ful", "521": " bec", "522": " like", "523": " would", "524": " liked", "525": "elt", "526": "round", "527": " One", "528": " felt", "529": "ight", "530": " fa", "531": " Ben", "532": " la", "533": " W", "534": "ell", "535": " make", "536": " But", "537": "You", "538": " asked", "539": " new", "540": "ice", "541": "iled", "542": "ss", "543": "ared", "544": "ag", "545": " Sam", "546": "ought", "547": " see", "548": "omet", "549": " al", "550": " started", "551": " ag", "552": " came", "553": " no", "554": " smiled", "555": " car", "556": " other", "557": "ried", "558": " somet", "559": " good", "560": " say", "561": " br", "562": " small", "563": "ade", "564": "pot", "565": "ob", "566": "ings", "567": " wor", "568": " away", "569": "ab", "570": "ouse", "571": " find", "572": "us", "573": " ex", "574": " from", "575": " put", "576": "ty", "577": " thought", "578": " what", "579": " made", "580": "ened", "581": " playing", "582": "ie", "583": " home", "584": "king", "585": " wal", "586": "ach", "587": " something", "588": "ia", "589": "ile", "590": " every", "591": " ran", "592": " Spot", "593": " again", "594": " F", "595": " co", "596": "ave", "597": "uc", "598": "arn", "599": " box", "600": " down", "601": "dd", "602": " toys", "603": "ook", "604": " J", "605": " pr", "606": " took", "607": " sw", "608": " some", "609": "if", "610": " laug", "611": "oud", "612": "ust", "613": "ew", "614": " sun", "615": " around", "616": "ny", "617": " scared", "618": " lived", "619": " learn", "620": " will", "621": " my", "622": " fl", "623": "ure", "624": " your", "625": "ick", "626": "ret", "627": "ep", "628": " house", "629": " when", "630": " You", "631": " things", "632": " bl", "633": ",\"", "634": "ank", "635": "uck", "636": " then", "637": "pped", "638": " Mia", "639": "ist", "640": "Th", "641": " bot", "642": " ab", "643": "ish", "644": " who", "645": " get", "646": " know", "647": "ucy", "648": " fe", "649": "as", "650": " tried", "651": " got", "652": " knew", "653": "ited", "654": " lot", "655": "uch", "656": " says", "657": "ally", "658": "ap", "659": " int", "660": " ch", "661": "ive", "662": " red", "663": "Tim", "664": "nder", "665": "ump", "666": "Lily", "667": " pret", "668": "ous", "669": " about", "670": " care", "671": "fter", "672": " dec", "673": " So", "674": " op", "675": "fe", "676": " look", "677": " D", "678": " many", "679": "use", "680": " un", "681": " more", "682": "ise", "683": "ways", "684": " E", "685": "nn", "686": " exc", "687": " Mom", "688": " always", "689": " pic", "690": " po", "691": "\ufffd", "692": " best", "693": "qu", "694": " any", "695": " show", "696": " both", "697": " Lucy", "698": "ite", "699": " room", "700": " hug", "701": "ace", "702": "ers", "703": "ause", "704": " into", "705": " water", "706": " became", "707": " outside", "708": " learned", "709": " laughed", "710": "udd", "711": " dad", "712": "ided", "713": "ant", "714": " because", "715": " one", "716": " gre", "717": " pe", "718": " decided", "719": " And", "720": "pr", "721": " excited", "722": " v", "723": "Yes", "724": " nice", "725": " ho", "726": "nna", "727": " ke", "728": " eat", "729": " sor", "730": " this", "731": "ara", "732": " jump", "733": " long", "734": " feel", "735": "They", "736": " Bob", "737": "Tom", "738": " mo", "739": " told", "740": " run", "741": "ull", "742": "ink", "743": " sur", "744": " rock", "745": " inside", "746": " pretty", "747": " sl", "748": " sk", "749": "lew", "750": "iny", "751": " take", "752": " am", "753": " gave", "754": " surpr", "755": " fast", "756": " each", "757": " tow", "758": "our", "759": "ess", "760": "ro", "761": "ven", "762": "ged", "763": " sorry", "764": " need", "765": " or", "766": " much", "767": " than", "768": "urt", "769": " how", "770": "ised", "771": " str", "772": "able", "773": " under", "774": "Wh", "775": "og", "776": "ge", "777": " kind", "778": "and", "779": " gra", "780": " Amy", "781": "imal", "782": "ving", "783": " animal", "784": "ft", "785": " ta", "786": "But", "787": " food", "788": "etter", "789": "Can", "790": " walked", "791": " We", "792": " tr", "793": " wat", "794": " hand", "795": " old", "796": " His", "797": " list", "798": " hig", "799": "ff", "800": " just", "801": " clo", "802": " flow", "803": " en", "804": "rom", "805": " cle", "806": "ched", "807": " didn", "808": "urn", "809": " ide", "810": "eci", "811": "Mom", "812": "ase", "813": " try", "814": " idea", "815": " dan", "816": "ion", "817": "here", "818": " sky", "819": " its", "820": "ecial", "821": " special", "822": " near", "823": " flew", "824": " us", "825": " Anna", "826": " tw", "827": " happened", "828": "pl", "829": "gry", "830": " fo", "831": "ine", "832": " fi", "833": " sn", "834": " Th", "835": "Thank", "836": " if", "837": " cake", "838": "ber", "839": " fish", "840": " animals", "841": " stor", "842": " over", "843": " bug", "844": "lf", "845": " heard", "846": "ate", "847": " careful", "848": "ex", "849": " com", "850": "udden", "851": "rm", "852": " better", "853": " lots", "854": " by", "855": " let", "856": " hard", "857": " wind", "858": " never", "859": " hurt", "860": " bear", "861": " share", "862": "ople", "863": " Every", "864": " dre", "865": "uddenly", "866": "more", "867": " anymore", "868": " even", "869": " te", "870": "ort", "871": " tal", "872": "pec", "873": " fly", "874": " Sara", "875": " safe", "876": " love", "877": "ady", "878": " bu", "879": " end", "880": " don", "881": " K", "882": " fore", "883": "\n\n", "884": " give", "885": " people", "886": " after", "887": " clean", "888": "uff", "889": " proud", "890": " opened", "891": "bed", "892": "'m", "893": " high", "894": " gr", "895": " fam", "896": " bad", "897": " door", "898": " surprised", "899": " Then", "900": "itty", "901": "ak", "902": " turn", "903": "As", "904": " gl", "905": "age", "906": " From", "907": "ummy", "908": "ough", "909": " ground", "910": " clim", "911": " Her", "912": " thanked", "913": " im", "914": " When", "915": "iz", "916": " blue", "917": " call", "918": " book", "919": "kay", "920": "arden", "921": " garden", "922": "ild", "923": " far", "924": " ma", "925": " ever", "926": " way", "927": "pected", "928": " hugged", "929": " che", "930": " shiny", "931": " col", "932": " picked", "933": "Let", "934": " smile", "935": " mag", "936": " loud", "937": " cu", "938": " off", "939": " should", "940": " come", "941": " In", "942": "expected", "943": " unexpected", "944": "xt", "945": " next", "946": " stick", "947": " place", "948": " walk", "949": " N", "950": "ture", "951": " family", "952": "hes", "953": "em", "954": " qu", "955": " color", "956": "by", "957": " P", "958": " still", "959": "ip", "960": " unt", "961": " strong", "962": " great", "963": " boat", "964": " app", "965": "les", "966": " hat", "967": "oy", "968": " happily", "969": " bro", "970": "ool", "971": " until", "972": " jumped", "973": " town", "974": " ca", "975": " frog", "976": "dy", "977": " kid", "978": " helped", "979": " Sally", "980": " forest", "981": "ies", "982": " sto", "983": "orn", "984": "ct", "985": " doll", "986": "aut", "987": " squ", "988": "ary", "989": " Kitty", "990": " beaut", "991": " listen", "992": " showed", "993": " met", "994": " now", "995": "No", "996": "uffy", "997": " par", "998": " magic", "999": "<|endoftext|>"}